[PAD]
[UNK]
[START]
[END]
!
"
#
$
%
&
'
(
)
*
+
,
-
.
/
0
1
2
3
4
5
6
7
8
9
:
;
<
=
>
?
@
[
\
]
^
_
`
a
b
c
d
e
f
g
h
i
j
k
l
m
n
o
p
q
r
s
t
u
v
w
x
y
z
{
|
}
~
¡
£
¤
©
°
·
¿
×
æ
đ
œ
ʃ
ʅ
ʖ
α
ζ
η
θ
κ
μ
π
ρ
σ
ω
б
е
и
н
р
с
т
ь
ॐ
౪
ಠ
ᄈ
ᅡ
ᆼ
–
—
‘
’
“
”
•
−
√
∞
∫
⌐
─
╤
╦
■
◔
♪
⚡
✈
✏
➕
【
つ
ツ
丁
喲
媽
崇
常
清
胖
董
這
麼
🎺
🏢
👌
👍
💩
😀
😂
😃
😆
😏
😔
😜
😳
🙇
🤘
the
it
to
you
because
they
he
##s
and
in
of
was
is
one
on
can
for
your
that
with
his
have
out
are
get
my
don
re
she
an
no
up
just
all
##ing
but
when
this
me
what
there
be
not
##ed
her
at
if
both
do
them
so
know
their
##d
like
had
other
##er
##t
has
ll
from
##e
##y
joke
##r
got
him
two
only
by
about
how
go
off
##a
would
too
who
##o
people
always
##ly
never
well
back
see
##n
did
we
little
man
will
make
take
were
time
want
as
doesn
or
down
good
some
why
##i
say
didn
its
nothing
shit
tell
ve
really
black
more
over
##l
put
now
said
come
call
##in
first
then
sorry
before
into
none
cause
could
##on
right
made
way
think
where
heard
##h
dead
after
##le
been
dick
##es
give
white
##m
says
going
##p
old
day
##k
ass
fucking
around
here
even
jokes
still
##al
find
dog
gets
fuck
guy
couldn
edit
any
eat
hard
let
many
work
than
##c
came
someone
wife
chicken
told
head
face
long
##g
already
side
bad
being
does
need
goes
dad
year
look
myself
won
light
getting
new
##us
big
very
everyone
thought
oh
##ic
woman
ask
much
##u
night
##an
three
mom
##te
run
am
change
son
sure
wanted
went
name
last
once
while
comes
again
called
every
years
between
car
neither
away
hear
left
through
house
use
ever
##ion
10
keep
love
better
hey
stop
##ers
end
men
same
yes
##ist
##w
juan
small
##se
funny
great
nuts
##rs
lot
##ie
##ry
home
##ia
half
sex
balls
hit
takes
##b
##is
##or
baby
four
high
yeah
##it
mother
##ge
coming
women
show
##ty
enough
girl
person
everything
should
something
anything
credit
ones
##th
friend
saw
turn
yet
##ce
full
knock
until
##ck
asked
family
guys
money
probably
leave
free
looking
##st
another
large
life
found
kids
red
used
which
having
hell
racist
screw
under
hand
hole
start
thing
##ity
##ting
father
legs
world
actually
knows
play
pretty
##man
##nt
wouldn
dark
makes
making
##id
##um
boy
cock
nobody
post
those
throw
##en
##ts
##x
##f
##ar
##ian
##re
best
depends
front
own
trump
##ted
bear
line
pay
please
trying
wasn
water
##tion
eh
hot
reddit
god
stand
##et
##ter
anyone
inside
second
wrong
##est
bar
bulb
next
thanks
##ies
america
denim
read
room
wants
cow
most
##at
beat
kill
meat
medium
place
taste
answer
ate
bill
doctor
hold
school
wall
##ch
##z
box
kept
stick
without
##0
##pe
cross
gonna
mean
try
bed
bus
fall
fish
food
ice
na
real
took
##ke
hands
isn
job
kid
us
##less
##sh
crack
cut
door
pizza
stuck
watch
worry
##ation
##ine
##ve
course
done
mouth
open
wanna
cancer
doing
feel
matter
pick
pull
teacher
##ment
##ped
field
lost
might
tree
##el
apparently
cold
cuz
drink
either
jew
nice
question
sir
cool
died
lightbulb
tea
ten
whole
##il
blow
thank
tired
today
##able
behind
blue
buy
child
each
fly
gay
husband
jesus
may
things
wait
##age
##nd
eye
fire
fit
police
##ate
##ent
bit
drop
looks
walk
##ue
friends
guess
help
turns
##ner
##ping
##ps
11
arms
drive
else
gas
green
live
these
times
##ne
##ous
##ver
children
feet
hasn
running
santa
seen
six
##as
##nce
##ra
aren
beef
case
damn
everywhere
finger
happy
nose
nun
oven
rest
short
talk
##ds
##ful
##ive
##red
ball
close
mind
##ial
##ma
##ow
asks
de
eyes
finish
girlfriend
pilot
sea
##ble
##me
##os
##ure
asshole
em
jump
later
period
shoot
smell
station
virgin
week
wondering
##les
##per
##up
20
bitch
business
cat
difference
fell
game
kick
least
morning
##ur
care
fat
million
number
our
point
replied
sit
straight
together
##ling
12
far
five
haven
ho
jews
paint
punchline
suck
wheelchair
##ro
also
american
bag
brown
few
ok
piece
shot
##ice
##ns
##ot
##ut
believe
cheese
death
horse
mine
race
roll
store
word
##ction
##na
##ual
donald
lol
minutes
parents
potato
tried
##ide
air
bunch
cantaloupe
christmas
deep
die
hate
middle
pants
pencil
ride
rock
taking
twice
##ated
french
hair
laid
problem
remember
salad
sister
talking
tickles
wet
##ally
##go
##ir
##ll
##oo
##ta
50
beer
cunt
hang
im
literally
okay
part
removed
top
tuna
##ary
##dy
##ee
##rd
##v
caught
country
days
dont
fingers
ha
himself
minor
usually
##ard
bread
buck
different
hope
killed
must
penis
punch
##ah
blood
body
boo
elephant
flat
needed
pair
stupid
##ct
##ise
##ite
##ss
##way
69
ago
butt
crustacean
outside
pee
ran
steal
swim
themselves
twenty
window
##2
##der
##rt
cake
catch
dirty
dollars
drunk
eating
fine
hello
michael
months
pool
pussy
saying
tip
walking
wood
##ant
##ey
##ka
##ness
##ny
100
bean
bird
busty
check
dinner
ear
fast
favorite
frog
jack
means
pop
silent
space
taken
tight
wash
works
##ff
##im
##ins
##ls
##out
##tes
fucked
fun
girls
grass
hitler
inches
instead
john
less
nailed
nevermind
nine
orange
plane
slow
starts
stay
student
third
##que
break
coffee
crusty
cunning
dysfunction
fart
foot
forget
gave
ground
hide
keeps
kind
law
leg
likes
playing
push
sick
stays
telling
truck
##9
##ick
##op
##use
##ze
ant
bach
bomb
corner
da
deer
dogs
forgot
gives
gotta
jewish
knee
longer
nail
note
pissed
replies
since
snow
understand
young
##5
##8
##ad
##by
##ged
##land
##ring
afraid
apple
bottom
bring
class
easy
hi
honey
miss
nein
polar
poo
repost
road
self
seven
such
sucks
table
tastes
whore
yourself
##ber
##ding
##ger
##ized
##ors
##ory
##ster
##ton
##ves
across
ain
alone
ash
become
boat
born
boys
clean
egg
eggs
felt
fits
king
late
load
male
mexicans
rape
standing
started
support
swallow
though
throat
##4
##ap
##cy
##de
##ile
##li
##line
##ries
##tch
##ub
able
anyway
bush
christian
driver
hooker
idea
low
meet
party
periods
piano
seconds
sitting
soul
spend
toilet
wearing
##ating
##ical
ba
baked
blind
blonde
brother
calling
camp
cant
dough
dr
iron
kitchen
mexican
nazi
outstanding
sell
stops
story
tents
test
working
##am
##gan
##ible
##ip
##py
##uck
30
cos
double
duck
erection
glass
group
land
lose
reptile
sandwich
share
sign
sound
source
stuff
tampon
team
teeth
using
vote
##day
##ire
##mer
##my
##to
##ude
##urt
##wn
aids
cream
cum
daughter
fruit
milk
paper
phone
planet
porpoise
pulled
robin
sense
set
shoes
slip
turned
windows
yellow
##7
##ator
##bs
##gle
##ix
##ler
##ol
##ons
##ore
##rn
##tic
##ug
##ung
13
against
asking
bike
book
broke
burn
count
dum
earth
fresh
juice
lady
lie
lives
mad
plus
president
quack
sally
seal
tongue
ya
##ans
##co
##her
##ini
##io
##ms
##ning
##one
##room
15
bone
chimney
deleted
dicks
everybody
feed
giving
handle
happened
holy
hose
hours
huge
knife
married
mary
poor
quarter
shower
soon
stool
sucking
super
touch
uranus
words
worse
##ach
##be
##ious
##ists
##ize
##ks
##ky
##tor
##ving
al
bacon
blew
blowing
cents
cover
cry
during
ends
english
finding
flip
floor
humor
laugh
lit
loud
pass
patrick
power
pun
reach
ring
russian
seriously
shake
shucks
sleep
stalin
terrible
thinking
tomorrow
tonight
town
ugly
unless
vagina
win
worth
##ians
##king
##ney
##pin
##ral
##rist
##shed
##tive
##ud
##un
##ute
acne
anti
apart
bucks
ceiling
cheesy
chest
coffin
common
cop
cotton
couple
eventually
extra
fan
hoe
leaves
letter
lips
mail
mass
nah
news
paid
past
prostitute
retarded
river
shut
suicide
trouble
turkey
watching
woke
write
##1
##ast
##can
##ions
##lin
##ng
##ops
##ple
##rate
##ward
25
age
battery
chair
culture
cunts
cup
driving
dude
dying
ears
ewe
flag
force
fridge
heart
history
hour
ill
isis
ken
key
lots
math
maybe
murder
names
needs
officer
organ
position
runs
shoulders
square
state
wear
weren
wonder
yesterday
##ak
##ay
##cation
##gy
##ha
##iet
##led
##ree
##tt
##ution
##uts
allah
bees
carry
clothes
daddy
dam
dell
enjoy
german
gold
haha
hillary
jeans
jobs
kermit
kin
ladder
mourning
order
original
others
pain
pirate
pounds
public
pump
quite
reason
remove
rice
safe
scream
sheep
shooting
shouldn
smoke
street
sub
tits
urine
wedding
whatever
wii
worked
##ain
##all
##ax
##back
##ca
##ean
##els
##end
##ft
##gs
##ham
##ier
##ish
##rew
##rk
##rr
##sed
200
90
ahead
asian
banana
bob
booty
caesars
chin
clapton
con
deal
dollar
doors
eric
essay
feeling
follow
hearing
holocaust
human
hurt
jam
jose
lay
mate
moo
movie
non
posted
pregnant
ready
sentence
skin
sleeping
smells
snowden
soup
split
train
un
waits
walks
wow
zero
##ance
##bie
##dian
##hh
##ics
##la
##ments
##nts
##nuts
##ose
##pa
##pper
##ris
##sing
##tter
##ush
14
animal
anymore
atmosphere
bale
became
becomes
candy
charged
chew
chinese
coke
computer
dance
date
degrees
delivery
dream
drone
ex
except
falling
final
garbanzo
glove
gone
google
gun
hebrews
inch
itself
jalapeno
missing
month
mr
music
north
oil
olive
park
picture
prefer
pricks
pro
que
sees
shells
shop
stopped
title
trees
udder
uncle
watches
wind
wipe
wongs
zoo
##6
##ball
##bi
##board
##cs
##da
##den
##ern
##ism
##its
##kes
##lay
##mi
##ned
##od
##ooo
##orm
##our
##ration
##ters
##ular
assholes
aye
babies
batman
beats
beautiful
bitches
bloody
blowjob
butter
cares
catholic
chance
concentration
control
courtesy
cucumber
dressing
drinking
eight
headlines
idiot
knew
living
looked
matey
minute
mum
natural
obama
pasta
pokemon
putting
rather
rings
sedan
seem
send
shellfish
shots
sin
solution
spread
step
stolen
tequila
ton
vans
waiting
waved
yo
##bed
##ception
##che
##cker
##ence
##eral
##fy
##gers
##hi
##ider
##ight
##ium
##lly
##men
##mit
##nder
##ok
##ong
##ord
##pt
##sion
##tain
##ula
##va
##ye
alright
ants
basement
bro
bruce
build
chamber
charge
clinton
cocaine
comments
condescending
corn
dental
drank
dre
easier
engineer
faster
fired
furniture
grows
ham
hook
hung
jaw
language
lettuce
lick
lion
log
machine
master
met
mobile
monkey
moving
named
obviously
op
pi
poop
prison
reading
rights
search
shitty
shoulder
single
snatches
soap
steak
stole
stoned
strong
system
tips
trailer
trunk
van
war
wheels
wine
##fer
##gh
##ids
##ker
##med
##ming
##mp
##ood
##ope
##phone
##rian
##sy
##uit
##unt
000
abortion
african
americans
awake
bay
bee
bulbs
bull
busy
cards
cell
cereal
circle
club
cook
crime
crisis
definitely
drinks
el
empty
fact
finally
following
freedom
harambe
harder
holes
idk
kneaded
ladies
lighter
lines
list
moon
mud
normal
opened
pan
perfect
pew
pot
pressure
rain
rub
scares
seoul
society
somebody
somewhere
special
star
steaks
stories
sweet
thinks
toast
uses
vegetable
walked
wheel
wise
wong
zipper
##ba
##bar
##bing
##bo
##cer
##fe
##fied
##ga
##ily
##int
##ject
##ken
##lls
##load
##mes
##oe
##off
##om
##ony
##ph
##q
##ress
##rrr
##time
##uh
##ull
##ump
##ys
alt
anal
artificial
asleep
bank
beans
bigger
blender
bra
canadian
cloud
coat
comment
completely
condom
drug
dunno
early
eve
garage
george
grade
hanging
hodor
italian
jail
jelly
juggler
known
letters
lift
liquor
losing
lying
ma
mein
mile
mistake
move
national
page
penny
player
prints
professor
pulling
rolling
sack
shows
sleevies
snowballs
solo
sometimes
stairs
states
stroke
swimming
till
tiny
toe
tooth
trans
wake
whale
wing
##ager
##ai
##ase
##ass
##ats
##berry
##cks
##ell
##ery
##gen
##gie
##gram
##gue
##head
##hip
##ils
##ities
##ld
##logist
##ola
##ole
##pies
##poon
##res
##rey
##ron
##rus
##sm
##try
##ume
##und
##ux
##wer
accent
adam
add
bathroom
bernie
bison
blows
brain
breakfast
bye
captain
cheap
cheetahs
crimea
data
direction
disease
dry
earlier
election
everyday
explain
feminists
fo
forward
fur
genes
habit
higher
homo
jimmy
joe
kicked
killing
laughed
lead
lee
lunch
microwave
neck
pepper
picked
pie
press
prime
prophet
putin
rich
rip
sand
sandy
save
seamen
seeing
seems
shits
size
snowed
south
spelling
stephen
stroganoff
stunts
subreddit
toad
tv
type
vegetables
warm
whey
worst
wurst
york
##ack
##ains
##cket
##ea
##een
##ep
##ess
##ew
##fish
##ik
##ill
##iss
##kin
##lated
##nies
##nse
##ork
##pers
##rry
##sexual
##stic
##tal
##ther
##tly
##tte
##ture
##uct
##ust
##vator
##vity
##ws
##yed
##zzle
amount
anywhere
bae
band
bartender
bass
below
belt
books
boston
broom
bucket
bullet
carlos
changing
cherry
chips
cl
color
coma
compliment
cops
crap
dishes
dump
ebola
exactly
finished
flying
given
grilled
grow
happen
hardware
horny
issues
jackson
laughing
loves
magic
mexico
mike
movies
neighbor
often
pao
peter
pork
priest
pronounce
pumpkin
puns
rated
recently
refrigerator
roof
round
row
scared
seat
seizure
sheet
ship
soda
speak
speed
spot
submarine
suit
tears
thread
threw
trash
trick
tulips
tunnel
uh
upside
voice
washing
wave
whose
wish
wrap
xd
yours
##ake
##art
##bel
##cent
##cle
##cts
##di
##do
##dom
##eer
##ered
##form
##ging
##ino
##ital
##j
##logy
##ncy
##ners
##oy
##port
##rade
##rated
##rds
##ric
##sis
##uin
##urry
##ury
##vil
##zing
99
alive
allowed
answered
arrested
avoid
bang
barium
bark
beach
bi
bikes
bite
board
breaks
breast
breath
broken
brothers
bum
cats
chink
closet
crazy
crowbar
cute
deaf
dear
decided
dies
drizzle
dropped
easily
eats
ed
ended
entire
exist
experience
fam
farmer
farts
forced
freezer
freudian
fungi
ginger
glad
gum
happens
hare
hat
heavy
hispanic
hits
hockey
homes
insert
internet
jerk
jk
kidding
killer
la
leaf
leaving
marriage
mockingbird
mount
near
nelson
nigga
nom
numbers
nut
office
per
piss
possible
presents
proper
proud
radical
rocks
salt
sauce
sing
slap
spell
spirit
squats
stevie
sticks
sun
tail
tape
theft
tie
toes
tom
trigger
trust
weak
weird
welcome
whats
wooden
yelling
##ab
##ade
##anic
##ature
##bies
##ced
##eep
##eze
##ffy
##gon
##ground
##iate
##ices
##ied
##ig
##igh
##ike
##ires
##ived
##iving
##lk
##lt
##mon
##ob
##rial
##row
##rth
##sa
##saurus
##thm
##tin
##tions
##ult
##urds
##ved
##vor
##yer
16
31
absolutely
arm
ashtray
attacks
au
bastard
ben
blown
border
bought
brazilian
bricks
buns
china
church
city
claus
clock
closed
college
conversation
corny
crust
dec
descending
dictator
drugs
due
dumb
elephants
er
excuse
expect
fairy
fault
female
fence
fight
fitzpatrick
flies
fucks
garbage
giraffe
gore
government
grandmother
grip
hanger
hollow
intelligence
jar
johnny
kinda
knees
knight
liked
mainstream
mark
market
marry
match
moan
naan
oc
offensive
older
pack
patient
patty
paul
paws
peas
pieces
pig
pink
plays
poke
problems
puts
quit
raw
runts
searching
shovel
silence
simple
situation
sold
spaghetto
spit
stock
switch
tells
thief
tickle
tit
true
unique
veteran
vision
weeks
whether
wild
willie
wok
wop
yoda
##ale
##als
##ama
##asure
##ates
##aurus
##aw
##bag
##bit
##bles
##bor
##cist
##count
##date
##dge
##ear
##ering
##ese
##gger
##hs
##iac
##ibly
##ica
##idel
##illa
##ised
##ited
##kers
##ket
##lan
##len
##nded
##ni
##nk
##not
##oke
##omy
##oni
##ort
##ply
##pped
##ppy
##pression
##rant
##ray
##ria
##thy
##ti
##ube
##ul
##urger
##vation
##vered
##zz
18
adult
animals
anybody
attention
bet
bin
birds
blast
boards
bonus
bowl
boyfriend
bright
building
bunny
cannot
card
cells
cent
changed
chickens
cigarette
clause
constantly
cracker
crowd
crying
diet
directions
dna
dragon
easter
energy
european
fans
farty
forever
fowl
fuckin
games
genius
glue
grammar
greece
harry
hill
holds
hurts
interest
irish
issue
jamal
junk
knead
laundry
lawn
lied
lmao
loco
massive
meal
meant
message
nacho
nation
nazis
neighborhood
nguyen
nigger
noise
notes
oct
paying
phelps
pikachu
played
pole
polish
queen
reaction
reich
reply
root
rubber
sarah
scratch
screwed
semen
sherlock
sink
sleeps
smaller
smart
sounds
spotted
sticky
strange
sum
syndrome
tennish
totally
towers
tsk
upon
view
vs
waist
ways
weed
wont
##3
##aking
##cher
##chwitz
##cious
##cted
##cus
##dd
##eee
##em
##eo
##eve
##hole
##iding
##ign
##itch
##izing
##lar
##lf
##lo
##long
##mate
##min
##mm
##nds
##old
##oman
##ool
##ote
##otives
##ots
##ouch
##po
##raft
##ried
##ses
##sia
##sk
##tail
##tics
##tle
##uatro
##ucks
##uming
##unch
##vel
##vious
##ww
##xic
##zed
answering
apologies
army
art
awful
bars
biggest
blame
boil
boner
bottle
bubbles
burning
caesar
canada
career
characters
christopher
clever
clown
complete
condoms
cost
cows
current
dig
doctors
dozen
dropping
elephino
epileptic
error
favourite
fe
feels
fellow
finnish
flu
football
fox
golf
granite
guns
hairy
hawking
heading
hoes
holding
hood
horrible
investigator
jets
karma
kinky
loan
local
meaning
meeting
metal
mirror
mississippi
mmm
muslim
nails
neigh
nowhere
offended
offender
offer
oui
paragraph
personality
philip
plenty
pointless
porn
pounder
pray
prick
private
protect
radio
raise
restaurant
revolve
revolves
roast
rooster
russia
sad
san
sandwiches
screaming
screwing
season
serious
service
sexual
shoe
showers
sleeve
smoking
song
spanish
spent
stink
strings
students
sugar
sunday
tear
tend
tss
video
web
weight
west
whenever
windshield
wrote
yell
##00
##ache
##ag
##ales
##ault
##ave
##brush
##cal
##ccess
##ched
##ci
##cing
##ctor
##ded
##des
##dia
##dies
##ect
##edophile
##fa
##ference
##fully
##gress
##he
##heat
##hhh
##hy
##ically
##icked
##iction
##iddle
##idence
##ient
##ift
##inated
##irt
##iter
##ition
##itive
##lam
##let
##lette
##lle
##low
##lower
##lug
##mber
##mobile
##nie
##night
##nned
##ock
##oid
##oin
##oking
##olly
##ologist
##ones
##oth
##otic
##ough
##ouse
##parent
##pic
##ractor
##ri
##right
##rism
##rty
##rush
##self
##sive
##ten
##tent
##ttered
##uce
##ucker
##uda
##udge
##uel
##uff
##ugh
##unk
##urn
##urs
##uss
##verage
##vin
##volved
##wards
##ware
##wl
##yan
##yke
##yle
##zy
1forrest1
2020
21
40
500
above
algae
allahu
alzheimer
amazing
anne
astronaut
awesome
bagels
bags
barely
basic
bath
battle
bench
birthday
bonds
bono
boom
boss
breaking
brick
british
brunette
burned
button
calls
campaign
carrot
cars
center
cha
changes
charges
cheetah
chick
command
concentrate
confused
counter
court
cumference
cuts
dairy
dat
debate
deez
destruction
dill
doesnt
doodle
downs
downvote
drag
drops
drove
duh
episodes
etc
everytime
execution
farm
feather
file
filled
fingering
fix
fixed
form
fortune
fried
gargle
germany
goat
golden
goodyear
gotten
grape
hates
heaven
heil
however
hundred
impasta
important
information
ing
intense
iran
johnson
klingons
learn
learned
lentil
lets
listen
lo
march
mayo
midget
miles
monkeys
mosquito
mountain
neil
nile
noah
onion
onto
oral
paddy
patients
pause
pea
petting
phones
places
plate
players
plunger
points
porcupine
potter
pound
predator
racism
range
rare
records
rise
roamin
rolls
rope
section
seizures
sentences
sexy
shall
shirt
sides
simply
sinko
skip
slide
sniff
soft
sparky
sport
spray
stone
summer
tank
target
thousand
threesome
tin
trap
turnip
twist
underwear
universe
ups
usain
vas
vladimir
wallet
wears
williams
written
##20
##aa
##ably
##acle
##aged
##ail
##ane
##ants
##ards
##ately
##ations
##bating
##berg
##bert
##box
##brador
##cans
##car
##ces
##ches
##ciation
##cid
##cles
##cologist
##creen
##days
##deer
##dium
##dle
##ebra
##even
##father
##gic
##got
##han
##heads
##hile
##hoo
##hor
##house
##ib
##icle
##icles
##ides
##ille
##iner
##ional
##ista
##itz
##lands
##lim
##mad
##metry
##mg
##mies
##mination
##mus
##nding
##nel
##nes
##no
##nter
##oes
##ome
##opian
##ories
##ou
##over
##pes
##pos
##posing
##rab
##ram
##ranny
##rator
##ream
##riage
##rill
##rity
##sent
##shes
##so
##son
##ssion
##sts
##thon
##ua
##ubble
##ucky
##ule
##uly
##urd
##urse
##used
##uum
##yo
##zer
68
911
airport
akbar
alien
arrr
arse
aryan
attack
ayy
bagel
baroque
basketball
bears
beating
bicycle
bingo
bipolar
block
bodies
bolt
boots
branch
brought
built
bullets
calf
carrion
carrots
cases
causes
chain
chocolate
claws
closer
code
coin
com
company
complain
cookies
covered
cowboys
coz
crackers
crossfit
cupboard
cutting
dates
diarrhea
dip
dress
drivers
dust
eagle
eclipse
electricity
engine
excited
explode
faces
ferrari
fifty
fighting
figured
fill
fitting
floss
frozen
future
galaxy
gang
gasoline
genocide
gorilla
hadn
handed
hebrew
held
hire
homeless
homework
hopefully
horns
hurty
idaho
ihop
illegal
indians
ish
islam
james
justin
kills
kim
library
lies
lights
loaf
loki
luke
lukewarm
mama
mess
mid
missed
mittens
moment
momentum
mostly
nervous
niggers
nurse
ocd
oops
owe
owner
palm
panties
passed
peanut
pen
periodically
pho
picking
pillow
pirates
plastic
pocket
poker
political
pooh
pope
popular
potassium
practice
price
pride
princess
purple
pussies
realize
repossessed
rod
rushmore
sale
sanders
satan
satisfying
saturday
science
shaking
shell
signs
sikh
silly
snack
sock
spare
st
stiff
stumped
sunni
supposed
surgery
tame
tater
technicality
text
thai
thats
thick
thyme
tied
til
tomato
tony
treat
tries
trip
truth
tu
twins
ugh
united
vest
victims
watermelon
wayne
wee
wings
winning
within
worried
xbox
##80
##aaa
##aint
##aire
##ample
##arts
##ash
##ater
##ative
##bal
##bits
##cept
##cording
##cue
##cure
##dition
##ede
##eed
##eeee
##ef
##elope
##ending
##eon
##erms
##erry
##erve
##ets
##fit
##flix
##ges
##haha
##hin
##iented
##iggle
##ility
##imate
##ime
##ina
##inal
##ings
##ision
##istic
##itsu
##itter
##ius
##ja
##lies
##light
##lops
##lve
##lved
##mature
##mers
##mie
##mole
##munity
##nia
##nic
##niel
##nobyl
##obic
##og
##oked
##olf
##ond
##ooooo
##oot
##oses
##ound
##ox
##partment
##pear
##pect
##phy
##pie
##pire
##portation
##pose
##ppear
##presso
##propriate
##pter
##pth
##ption
##rect
##reme
##ret
##rib
##ride
##rie
##rine
##rl
##rone
##ronic
##rophy
##rto
##shing
##sist
##ssing
##sta
##sus
##table
##tein
##tery
##tician
##tick
##tment
##troverted
##tus
##ubs
##uction
##uette
##uf
##ugs
##uilty
##uing
##uins
##uk
##uke
##ulation
##ulator
##ults
##ument
##urance
##ured
##urgeon
##utes
##vent
##vented
##vocado
##www
##ying
##ym
2016
45
80
address
admit
afterwards
agree
airplane
alcohol
along
amish
angry
annoying
array
asians
attempted
audience
bare
based
basically
beaver
beets
begin
billion
bombs
bones
bowling
brings
buddy
burns
california
camel
camps
carbon
character
choose
chuck
circus
clear
comedy
content
cooking
copy
cosby
counting
cousin
criminal
criminals
ctrl
cube
cumin
cumming
curiosity
czech
daesh
dancing
david
def
deferens
depressed
didnt
dis
disaster
doe
donkey
dublin
east
efficient
episode
escape
ese
et
extinct
facebook
fake
feminist
fetish
filling
film
fist
flew
flight
folks
fool
foreskin
forgive
fork
frank
genie
ghost
giant
gloves
grab
grave
gravity
gross
guard
halloween
heads
heh
herd
hertz
hilarious
hint
hops
horses
hospital
huh
humour
hungry
ideas
imagination
inflation
irene
israeli
jacket
jared
jungle
ketchup
lack
lame
laughs
leader
leppard
level
lightbulbs
link
locked
lord
loss
main
marks
matches
melon
mennonite
mentally
meter
mice
microsoft
mini
mitosis
mode
mommy
mon
naked
namaste
naughty
olds
oscar
pa
parent
parking
peace
personal
pervert
phil
pipe
poles
posting
posts
potatoes
prince
prize
project
promise
quickly
ra
rabbi
rabbit
raisin
raped
receding
relationship
relative
remind
replace
robot
ruler
scout
scouts
secret
shade
shades
shelter
shove
slowly
smile
snoop
social
socks
sore
speech
spirits
stars
stayed
stove
sue
surprise
swing
talks
tan
teach
tearable
terrorists
thirty
tough
track
traffic
trumpet
tune
unemployed
unscrew
vegetarian
watched
waves
weather
whites
wide
wolf
woods
wreck
##!
##"
###
##$
##%
##&
##'
##(
##)
##*
##+
##,
##-
##.
##/
##:
##;
##<
##=
##>
##?
##@
##[
##\
##]
##^
##_
##`
##{
##|
##}
##~
##¡
##£
##¤
##©
##°
##·
##¿
##×
##æ
##đ
##œ
##ʃ
##ʅ
##ʖ
##α
##ζ
##η
##θ
##κ
##μ
##π
##ρ
##σ
##ω
##б
##е
##и
##н
##р
##с
##т
##ь
##ॐ
##౪
##ಠ
##ᄈ
##ᅡ
##ᆼ
##–
##—
##‘
##’
##“
##”
##•
##−
##√
##∞
##∫
##⌐
##─
##╤
##╦
##■
##◔
##♪
##⚡
##✈
##✏
##➕
##【
##つ
##ツ
##丁
##喲
##媽
##崇
##常
##清
##胖
##董
##這
##麼
##🎺
##🏢
##👌
##👍
##💩
##😀
##😂
##😃
##😆
##😏
##😔
##😜
##😳
##🙇
##🤘
